<unk>	0
<s>	0
</s>	0
▁t	-0
▁m	-1
ha	-2
▁a	-3
▁i	-4
re	-5
▁k	-6
▁p	-7
▁b	-8
▁s	-9
in	-10
▁c	-11
▁w	-12
he	-13
an	-14
▁n	-15
on	-16
▁f	-17
ar	-18
it	-19
at	-20
er	-21
▁d	-22
ou	-23
▁ha	-24
hi	-25
en	-26
▁re	-27
ya	-28
▁l	-29
ho	-30
ed	-31
▁my	-32
▁the	-33
▁hai	-34
ing	-35
▁r	-36
▁y	-37
▁to	-38
as	-39
ce	-40
al	-41
20	-42
▁e	-43
st	-44
ai	-45
or	-46
▁is	-47
le	-48
▁ho	-49
▁g	-50
nt	-51
om	-52
ak	-53
han	-54
am	-55
ur	-56
ut	-57
▁for	-58
▁me	-59
▁you	-60
▁j	-61
nd	-62
▁no	-63
▁de	-64
▁ba	-65
ate	-66
ye	-67
▁bj	-68
ta	-69
▁ka	-70
ch	-71
▁lo	-72
▁am	-73
ll	-74
202	-75
na	-76
ais	-77
ly	-78
aya	-79
▁pr	-80
os	-81
▁and	-82
▁1	-83
▁se	-84
ap	-85
ount	-86
▁ne	-87
▁mu	-88
▁ra	-89
▁thi	-90
▁fd	-91
akh	-92
▁si	-93
hank	-94
▁thank	-95
▁this	-96
▁pais	-97
ent	-98
ad	-99
▁kya	-100
hat	-101
ve	-102
ga	-103
▁lakh	-104
▁not	-105
▁ban	-106
▁ye	-107
▁it	-108
▁na	-109
▁o	-110
▁pro	-111
▁cha	-112
▁-	-113
▁paisa	-114
one	-115
gar	-116
▁in	-117
▁kar	-118
ant	-119
▁want	-120
fd	-121
▁loan	-122
▁gaya	-123
▁kit	-124
▁your	-125
▁u	-126
ds	-127
▁do	-128
▁pe	-129
▁em	-130
▁sir	-131
ti	-132
▁nahi	-133
▁ke	-134
▁ab	-135
▁ac	-136
ust	-137
ne	-138
ine	-139
ls	-140
ct	-141
▁he	-142
pp	-143
omer	-144
▁cust	-145
▁mi	-146
sh	-147
▁customer	-148
ra	-149
▁ma	-150
▁thanks	-151
▁at	-152
▁aap	-153
ck	-154
ge	-155
ding	-156
▁what	-157
gards	-158
▁ki	-159
▁need	-160
▁regards	-161
▁acc	-162
ance	-163
▁mat	-164
▁kitna	-165
▁su	-166
▁bank	-167
llo	-168
▁but	-169
hiye	-170
▁pa	-171
▁aapk	-172
▁chahiye	-173
ith	-174
▁with	-175
▁be	-176
▁rs	-177
▁v	-178
ata	-179
ment	-180
▁hoon	-181
▁on	-182
▁mer	-183
iting	-184
▁dear	-185
▁sc	-186
ss	-187
▁raha	-188
▁com	-189
out	-190
▁tha	-191
▁hello	-192
ati	-193
th	-194
ja	-195
hing	-196
me	-197
li	-198
ber	-199
▁account	-200
▁pen	-201
cess	-202
sp	-203
▁1.	-204
▁ca	-205
jhe	-206
▁mujhe	-207
ase	-208
red	-209
▁of	-210
▁ple	-211
▁please	-212
▁con	-213
ble	-214
xt	-215
▁9	-216
▁sa	-217
▁li	-218
▁rep	-219
▁mera	-220
oney	-221
▁ref	-222
▁money	-223
▁reply	-224
▁te	-225
ers	-226
▁hi	-227
▁aapke	-228
▁app	-229
▁care	-230
▁wi	-231
▁nam	-232
▁process	-233
ince	-234
▁will	-235
▁since	-236
▁st	-237
mber	-238
▁namas	-239
▁mere	-240
▁whe	-241
los	-242
ld	-243
▁ji	-244
ran	-245
cted	-246
hot	-247
▁2	-248
▁tw	-249
▁has	-250
▁was	-251
▁emi	-252
ere	-253
te	-254
00	-255
▁resp	-256
ation	-257
▁mein	-258
ue	-259
▁paas	-260
▁up	-261
▁year	-262
ranch	-263
▁branch	-264
▁ku	-265
▁wa	-266
od	-267
da	-268
de	-269
201	-270
▁mon	-271
▁ge	-272
▁month	-273
redit	-274
▁credit	-275
apas	-276
▁wapas	-277
▁team	-278
und	-279
▁wr	-280
▁int	-281
▁have	-282
blem	-283
▁problem	-284
ri	-285
▁as	-286
▁aur	-287
hut	-288
▁bahut	-289
▁z	-290
ime	-291
▁time	-292
ure	-293
▁who	-294
aye	-295
kar	-296
▁back	-297
▁pending	-298
ple	-299
pl	-300
▁|	-301
ail	-302
▁email	-303
▁sen	-304
▁dhan	-305
wad	-306
▁abhi	-307
▁dhanya	-308
▁dhanyawad	-309
▁fi	-310
▁liye	-311
reen	-312
▁screen	-313
▁ear	-314
▁amount	-315
▁kab	-316
▁nothing	-317
▁dep	-318
▁about	-319
▁waiting	-320
ita	-321
lti	-322
2022	-323
yada	-324
is	-325
▁5	-326
ltiple	-327
2021	-328
▁multiple	-329
▁tak	-330
▁3	-331
▁po	-332
▁rate	-333
▁ko	-334
▁mil	-335
nce	-336
▁atta	-337
▁get	-338
▁attach	-339
2024	-340
ag	-341
ik	-342
ty	-343
▁clos	-344
▁kiya	-345
iv	-346
▁been	-347
▁state	-348
ma	-349
2023	-350
▁statement	-351
▁karna	-352
▁are	-353
esh	-354
ity	-355
wal	-356
▁ek	-357
urity	-358
▁years	-359
lega	-360
▁milega	-361
▁4	-362
lse	-363
▁bha	-364
▁two	-365
▁aata	-366
jaj	-367
▁bajaj	-368
▁ret	-369
▁come	-370
no	-371
osed	-372
▁retur	-373
pt	-374
2019	-375
▁supp	-376
▁return	-377
▁kept	-378
▁zyada	-379
▁supposed	-380
lso	-381
▁also	-382
▁next	-383
▁writing	-384
ni	-385
2020	-386
onal	-387
▁yeh	-388
▁kuch	-389
▁pers	-390
▁7	-391
▁koi	-392
▁personal	-393
rom	-394
▁from	-395
ter	-396
▁man	-397
par	-398
osit	-399
ee	-400
ior	-401
hone	-402
▁where	-403
▁senior	-404
▁deposit	-405
iz	-406
▁ta	-407
itiz	-408
shot	-409
▁citiz	-410
▁fin	-411
▁citizen	-412
▁screenshot	-413
hle	-414
ong	-415
▁pehle	-416
▁months	-417
hta	-418
aise	-419
▁finance	-420
la	-421
cy	-422
gi	-423
ond	-424
▁namaste	-425
us	-426
▁fix	-427
uar	-428
▁ex	-429
▁how	-430
ore	-431
▁rece	-432
gh	-433
hab	-434
▁bhai	-435
▁sahab	-436
ain	-437
▁nu	-438
▁pre	-439
▁sec	-440
▁number	-441
now	-442
▁know	-443
▁agar	-444
sue	-445
▁issue	-446
▁refund	-447
▁an	-448
erst	-449
▁log	-450
▁aaya	-451
▁ext	-452
vest	-453
erest	-454
▁rene	-455
▁invest	-456
ited	-457
▁interest	-458
adam	-459
▁thing	-460
cu	-461
cer	-462
▁may	-463
madam	-464
▁docu	-465
▁whom	-466
▁concer	-467
ments	-468
urance	-469
▁concern	-470
▁documents	-471
bod	-472
▁en	-473
body	-474
▁ins	-475
▁nobody	-476
▁insurance	-477
▁ya	-478
▁main	-479
▁namaskar	-480
dd	-481
edu	-482
▁kat	-483
▁dedu	-484
ys	-485
▁cance	-486
▁gu	-487
▁sho	-488
ayega	-489
ected	-490
▁tax	-491
hange	-492
▁prem	-493
▁change	-494
▁respected	-495
age	-496
iya	-497
date	-498
▁sha	-499
▁receiv	-500
▁update	-501
▁earli	-502
urg	-503
▁din	-504
▁urg	-505
▁ver	-506
▁maturity	-507
ard	-508
▁card	-509
▁da	-510
di	-511
oh	-512
▁jo	-513
▁ky	-514
▁un	-515
▁fy	-516
aldi	-517
inee	-518
▁nom	-519
▁now	-520
▁tds	-521
▁poli	-522
▁jaldi	-523
▁nominee	-524
ick	-525
▁mal	-526
▁baat	-527
▁pick	-528
▁karne	-529
▁policy	-530
▁second	-531
-2	-532
eek	-533
ive	-534
▁yet	-535
▁week	-536
ic	-537
▁che	-538
hotra	-539
▁sche	-540
▁malhotra	-541
▁penal	-542
ast	-543
▁penalty	-544
▁karo	-545
yer	-546
▁extra	-547
▁jain	-548
any	-549
pany	-550
▁rao	-551
83	-552
▁company	-553
ice	-554
▁ju	-555
▁h	-556
▁iyer	-557
tal	-558
▁mehta	-559
▁problems	-560
hip	-561
ager	-562
onding	-563
▁total	-564
60	-565
▁manager	-566
ship	-567
▁rel	-568
▁fund	-569
ationship	-570
▁responding	-571
un	-572
air	-573
▁2.	-574
▁rec	-575
▁much	-576
▁nair	-577
oshi	-578
tion	-579
▁bou	-580
▁date	-581
▁joshi	-582
▁bounce	-583
▁relationship	-584
ddy	-585
▁fixed	-586
▁reddy	-587
▁und	-588
and	-589
pta	-590
rma	-591
▁cer	-592
▁gupta	-593
▁sharma	-594
ep	-595
ately	-596
▁underst	-597
▁per	-598
▁hoga	-599
▁picks	-600
▁understand	-601
ome	-602
▁aayega	-603
dey	-604
ingh	-605
▁kul	-606
▁pan	-607
▁else	-608
erence	-609
▁singh	-610
▁twice	-611
▁pandey	-612
▁deducted	-613
cd	-614
ion	-615
hatt	-616
▁bhatt	-617
▁kulkar	-618
▁urgent	-619
hl	-620
▁conta	-621
▁kulkarni	-622
000	-623
▁rm	-624
orec	-625
▁lage	-626
▁forec	-627
▁scheme	-628
▁contact	-629
kh	-630
um	-631
ters	-632
▁baar	-633
▁cons	-634
▁likh	-635
▁they	-636
▁told	-637
▁matters	-638
▁foreclos	-639
itu	-640
ual	-641
▁so	-642
▁hel	-643
▁vis	-644
▁situ	-645
▁closed	-646
▁received	-647
tw	-648
ene	-649
sai	-650
▁desai	-651
▁verma	-652
ui	-653
▁kaam	-654
▁visited	-655
ola	-656
,000	-657
▁bata	-658
▁bola	-659
▁kaise	-660
▁acount	-661
▁unhone	-662
se	-663
her	-664
uto	-665
▁noc	-666
▁auto	-667
▁plse	-668
▁cancel	-669
▁situation	-670
bi	-671
hop	-672
shra	-673
▁aga	-674
hopra	-675
▁fast	-676
▁long	-677
▁side	-678
▁chopra	-679
▁mishra	-680
▁credited	-681
61	-682
▁again	-683
▁agarwal	-684
▁attaching	-685
hine	-686
uary	-687
▁mahine	-688
▁against	-689
▁reference	-690
7.	-691
85	-692
fu	-693
dly	-694
ful	-695
▁40	-696
▁go	-697
▁kin	-698
▁min	-699
▁hold	-700
▁kindly	-701
est	-702
reat	-703
▁jan	-704
pline	-705
▁char	-706
▁minut	-707
▁treat	-708
▁needful	-709
ina	-710
ikal	-711
▁bina	-712
▁accnt	-713
▁nikal	-714
▁charge	-715
▁earliest	-716
▁helpline	-717
es	-718
fic	-719
our	-720
▁can	-721
▁rahe	-722
▁sure	-723
ficate	-724
▁aapka	-725
▁close	-726
▁maine	-727
▁minutes	-728
71	-729
▁op	-730
▁cut	-731
▁certi	-732
ua	-733
▁att	-734
▁hua	-735
▁out	-736
▁rakh	-737
▁things	-738
91	-739
▁band	-740
▁when	-741
▁funds	-742
▁attent	-743
63	-744
▁ar	-745
▁kitni	-746
▁attention	-747
5.	-748
bha	-749
atel	-750
▁201	-751
▁amm	-752
▁meri	-753
▁anita	-754
▁patel	-755
▁there	-756
▁shobha	-757
▁ammount	-758
ove	-759
ough	-760
▁exe	-761
▁pls	-762
▁phone	-763
▁priya	-764
▁enough	-765
▁mature	-766
▁18	-767
utive	-768
84	-769
▁ut	-770
alti	-771
▁amit	-772
▁appli	-773
▁galti	-774
▁milta	-775
▁wrong	-776
ie	-777
hata	-778
neha	-779
▁exec	-780
▁sneha	-781
▁executive	-782
ega	-783
▁naam	-784
▁pare	-785
▁recie	-786
8.	-787
part	-788
shan	-789
▁apart	-790
▁uthata	-791
▁renewal	-792
▁pareshan	-793
ved	-794
agen	-795
akta	-796
ohit	-797
agenge	-798
▁kitne	-799
▁rohit	-800
▁sakta	-801
▁lagenge	-802
79	-803
vi	-804
▁pal	-805
▁take	-806
▁raise	-807
▁issues	-808
▁recieved	-809
73	-810
▁q	-811
lavi	-812
▁onl	-813
terly	-814
▁renew	-815
▁pallavi	-816
74	-817
75	-818
ki	-819
▁94	-820
jesh	-821
▁online	-822
▁rajesh	-823
nita	-824
▁giv	-825
▁quar	-826
▁check	-827
▁giving	-828
▁sunita	-829
▁suresh	-830
▁quarterly	-831
atus	-832
isha	-833
rish	-834
vita	-835
ature	-836
▁nisha	-837
▁harish	-838
▁status	-839
▁returns	-840
▁premature	-841
come	-842
▁amnt	-843
▁naya	-844
▁income	-845
▁kavita	-846
ane	-847
nth	-848
ram	-849
epak	-850
▁lata	-851
▁mnth	-852
▁deepak	-853
64	-854
kha	-855
▁sh	-856
ling	-857
▁vik	-858
▁aane	-859
▁rekha	-860
▁separ	-861
▁filing	-862
▁vikram	-863
80	-864
lz	-865
ena	-866
oja	-867
▁79	-868
inod	-869
▁pay	-870
▁plz	-871
▁rahi	-872
▁pooja	-873
▁separately	-874
72	-875
oj	-876
hok	-877
ium	-878
inesh	-879
▁manoj	-880
▁meena	-881
▁vinod	-882
▁dinesh	-883
▁premium	-884
▁certificate	-885
eta	-886
▁sw	-887
▁ashok	-888
▁geeta	-889
▁swati	-890
81	-891
89	-892
ay	-893
ama	-894
akha	-895
kesh	-896
▁baad	-897
▁jama	-898
▁rakha	-899
▁mukesh	-900
ary	-901
▁sal	-902
▁dece	-903
▁note	-904
▁salary	-905
▁december	-906
▁10	-907
▁90	-908
▁one	-909
▁2022	-910
▁more	-911
82	-912
jay	-913
▁san	-914
▁send	-915
▁sanjay	-916
▁matur	-917
6.	-918
69	-919
rty	-920
ings	-921
urat	-922
▁ram	-923
nings	-924
uirty	-925
▁arun	-926
▁ramesh	-927
▁earnings	-928
▁matuirty	-929
4.	-930
aki	-931
▁15	-932
▁zar	-933
▁daal	-934
▁july	-935
▁kata	-936
▁prak	-937
▁baaki	-938
▁zarurat	-939
ash	-940
▁12	-941
usri	-942
▁sta	-943
▁june	-944
▁karu	-945
▁dusri	-946
▁prakash	-947
bm	-948
fe	-949
ry	-950
tp	-951
ws	-952
ady	-953
▁	-954
a	-955
e	-956
t	-957
i	-958
n	-959
h	-960
o	-961
r	-962
s	-963
m	-964
d	-965
l	-966
y	-967
c	-968
u	-969
k	-970
p	-971
.	-972
b	-973
g	-974
w	-975
f	-976
2	-977
j	-978
,	-979
0	-980
?	-981
1	-982
v	-983
9	-984
4	-985
5	-986
3	-987
7	-988
8	-989
6	-990
-	-991
x	-992
z	-993
|	-994
/	-995
q	-996
